{
  "vocab_size": 8192,
  "min_frequency": 2,
  "end_of_word": "</w>",
  "vocab": {
    "[PAD]": 0,
    "[UNK]": 1,
    "[BOS]": 2,
    "[EOS]": 3,
    "[SEP]": 4,
    "[CLS]": 5,
    "[MASK]": 6,
    "[THINK]": 7,
    "[/THINK]": 8,
    "'": 9,
    "+": 10,
    ",": 11,
    "-": 12,
    ".": 13,
    "1": 14,
    "3": 15,
    ":": 16,
    "</w>": 17,
    "a": 18,
    "b": 19,
    "c": 20,
    "d": 21,
    "e": 22,
    "f": 23,
    "g": 24,
    "h": 25,
    "i": 26,
    "j": 27,
    "k": 28,
    "l": 29,
    "m": 30,
    "n": 31,
    "o": 32,
    "p": 33,
    "q": 34,
    "r": 35,
    "s": 36,
    "t": 37,
    "u": 38,
    "v": 39,
    "w": 40,
    "x": 41,
    "y": 42,
    "z": 43,
    "à": 44,
    "á": 45,
    "â": 46,
    "ã": 47,
    "é": 48,
    "ê": 49,
    "ì": 50,
    "í": 51,
    "ó": 52,
    "ô": 53,
    "õ": 54,
    "ú": 55,
    "ý": 56,
    "ă": 57,
    "đ": 58,
    "ĩ": 59,
    "ơ": 60,
    "ư": 61,
    "ạ": 62,
    "ả": 63,
    "ấ": 64,
    "ầ": 65,
    "ẩ": 66,
    "ẫ": 67,
    "ậ": 68,
    "ắ": 69,
    "ằ": 70,
    "ặ": 71,
    "ẻ": 72,
    "ẽ": 73,
    "ế": 74,
    "ề": 75,
    "ể": 76,
    "ễ": 77,
    "ệ": 78,
    "ỉ": 79,
    "ị": 80,
    "ọ": 81,
    "ỏ": 82,
    "ố": 83,
    "ồ": 84,
    "ổ": 85,
    "ỗ": 86,
    "ộ": 87,
    "ớ": 88,
    "ờ": 89,
    "ở": 90,
    "ỡ": 91,
    "ợ": 92,
    "ụ": 93,
    "ủ": 94,
    "ứ": 95,
    "ừ": 96,
    "ử": 97,
    "ữ": 98,
    "ự": 99,
    "ỳ": 100,
    "ỷ": 101,
    "ỹ": 102,
    "ng": 103,
    "n</w>": 104,
    "s</w>": 105,
    "ng</w>": 106,
    "th": 107,
    ".</w>": 108,
    "t</w>": 109,
    "e</w>": 110,
    "c</w>": 111,
    "ti": 112,
    "nh": 113,
    "i</w>": 114,
    "tr": 115,
    ",</w>": 116,
    "nh</w>": 117,
    "a</w>": 118,
    "an": 119,
    "d</w>": 120,
    "ch": 121,
    "ar": 122,
    "al": 123,
    "y</w>": 124,
    "en": 125,
    "er": 126,
    "u</w>": 127,
    "or": 128,
    "in": 129,
    "à</w>": 130,
    "es</w>": 131,
    "o</w>": 132,
    "m</w>": 133,
    "p</w>": 134,
    "re": 135,
    "of": 136,
    "qu": 137,
    "ing</w>": 138,
    "of</w>": 139,
    "el": 140,
    "on</w>": 141,
    "the</w>": 142,
    "gi": 143,
    "ph": 144,
    "and</w>": 145,
    "ati": 146,
    "on": 147,
    "và</w>": 148,
    "iệ": 149,
    "es": 150,
    "al</w>": 151,
    "at": 152,
    "họ": 153,
    "học</w>": 154,
    "cá": 155,
    "các</w>": 156,
    "ro": 157,
    "ệ</w>": 158,
    "kh": 159,
    "cu": 160,
    "le": 161,
    "is</w>": 162,
    "ent</w>": 163,
    "st": 164,
    "ith": 165,
    "ed</w>": 166,
    "un": 167,
    "si": 168,
    "ac": 169,
    "ch</w>": 170,
    "an</w>": 171,
    "là</w>": 172,
    "ngh": 173,
    "ên</w>": 174,
    "ông</w>": 175,
    "ur": 176,
    "er</w>": 177,
    "lu": 178,
    "ết</w>": 179,
    "uy": 180,
    "li": 181,
    "em": 182,
    "lo": 183,
    "pro": 184,
    "con": 185,
    "ân</w>": 186,
    "ình</w>": 187,
    "tí": 188,
    "số": 189,
    "lear": 190,
    "su": 191,
    "with": 192,
    "as": 193,
    "ập</w>": 194,
    "ối</w>": 195,
    "learn": 196,
    "tha": 197,
    "ne": 198,
    "tw": 199,
    "co": 200,
    "de": 201,
    "with</w>": 202,
    "for": 203,
    "inc": 204,
    "di": 205,
    "ation</w>": 206,
    "tro": 207,
    "củ": 208,
    "của</w>": 209,
    "hệ</w>": 210,
    "ữ</w>": 211,
    "ơ</w>": 212,
    "ượ": 213,
    "ến</w>": 214,
    "á</w>": 215,
    "learning</w>": 216,
    "ts</w>": 217,
    "cti": 218,
    "are</w>": 219,
    "ve</w>": 220,
    "l</w>": 221,
    "ou": 222,
    "the": 223,
    "tru": 224,
    "ment</w>": 225,
    "to": 226,
    "ả</w>": 227,
    "iệu</w>": 228,
    "dụ": 229,
    "ể</w>": 230,
    "số</w>": 231,
    "ma": 232,
    "ic": 233,
    "int": 234,
    "ul": 235,
    "is": 236,
    "in</w>": 237,
    "ms</w>": 238,
    "ar</w>": 239,
    "res": 240,
    "cel": 241,
    "ho": 242,
    "nhân</w>": 243,
    "tạ": 244,
    "việ": 245,
    "ăng</w>": 246,
    "iề": 247,
    "iều</w>": 248,
    "giả": 249,
    "trình</w>": 250,
    "trong</w>": 251,
    "ển</w>": 252,
    "cơ</w>": 253,
    "óa</w>": 254,
    "dat": 255,
    "us": 256,
    "ural</w>": 257,
    "ks</w>": 258,
    "la": 259,
    "ag": 260,
    "com": 261,
    "ct": 262,
    "gr": 263,
    "ces": 264,
    "du": 265,
    "bi": 266,
    "ory</w>": 267,
    "ting</w>": 268,
    "má": 269,
    "í</w>": 270,
    "tu": 271,
    "tập</w>": 272,
    "năng</w>": 273,
    "giải</w>": 274,
    "ật</w>": 275,
    "kết</w>": 276,
    "ực</w>": 277,
    "thông</w>": 278,
    "tích</w>": 279,
    "iên</w>": 280,
    "đạ": 281,
    "ất</w>": 282,
    "vớ": 283,
    "với</w>": 284,
    "hóa</w>": 285,
    "ki": 286,
    "that</w>": 287,
    "data</w>": 288,
    "od": 289,
    "gh": 290,
    "inclu": 291,
    "includ": 292,
    "op": 293,
    "mi": 294,
    "ni": 295,
    "ons</w>": 296,
    "cal": 297,
    "tion</w>": 298,
    "proces": 299,
    "me": 300,
    "anis": 301,
    "anisms</w>": 302,
    "nu": 303,
    "ba": 304,
    "org": 305,
    "vel": 306,
    "máy</w>": 307,
    "trí</w>": 308,
    "dữ</w>": 309,
    "liệu</w>": 310,
    "dụng</w>": 311,
    "nhiều</w>": 312,
    "án</w>": 313,
    "ảng</w>": 314,
    "ị</w>": 315,
    "hà": 316,
    "tính</w>": 317,
    "nghiên</w>": 318,
    "cứ": 319,
    "cứu</w>": 320,
    "ành</w>": 321,
    "ce</w>": 322,
    "sy": 323,
    "orks</w>": 324,
    "pl": 325,
    "erv": 326,
    "to</w>": 327,
    "lin": 328,
    "ran": 329,
    "do": 330,
    "ri": 331,
    "comp": 332,
    "calcu": 333,
    "calculu": 334,
    "calculus</w>": 335,
    "vo": 336,
    "ous</w>": 337,
    "ang": 338,
    "ves</w>": 339,
    "und": 340,
    "theory</w>": 341,
    "stru": 342,
    "organisms</w>": 343,
    "devel": 344,
    "develop": 345,
    "development</w>": 346,
    "id": 347,
    "ánh</w>": 348,
    "tuệ</w>": 349,
    "tạo</w>": 350,
    "ào</w>": 351,
    "thố": 352,
    "thống</w>": 353,
    "ó</w>": 354,
    "sử": 355,
    "sử</w>": 356,
    "để</w>": 357,
    "toán</w>": 358,
    "ức</w>": 359,
    "đượ": 360,
    "được</w>": 361,
    "cấ": 362,
    "ượng</w>": 363,
    "hình</w>": 364,
    "ộng</w>": 365,
    "phá": 366,
    "iển</w>": 367,
    "quan</w>": 368,
    "ự</w>": 369,
    "đổ": 370,
    "đổi</w>": 371,
    "phân</w>": 372,
    "giá</w>": 373,
    "ặc</w>": 374,
    "ền</w>": 375,
    "sinh</w>": 376,
    "ế</w>": 377,
    "thành</w>": 378,
    "ườ": 379,
    "tes": 380,
    "việt</w>": 381,
    "na": 382,
    "nam</w>": 383,
    "sub": 384,
    "se": 385,
    "fo": 386,
    "syst": 387,
    "system": 388,
    "systems</w>": 389,
    "neural</w>": 390,
    "netw": 391,
    "networks</w>": 392,
    "mul": 393,
    "ers</w>": 394,
    "wh": 395,
    "ern": 396,
    "alg": 397,
    "include</w>": 398,
    "line": 399,
    "linear</w>": 400,
    "sion</w>": 401,
    "ect": 402,
    "gra": 403,
    "cul": 404,
    "form": 405,
    "at</w>": 406,
    "chi": 407,
    "duc": 408,
    "-</w>": 409,
    "stan": 410,
    "ates</w>": 411,
    "pi": 412,
    "ee": 413,
    "pres": 414,
    "aly": 415,
    "me</w>": 416,
    "gy</w>": 417,
    "ls</w>": 418,
    "by</w>": 419,
    "vas": 420,
    "mộ": 421,
    "một</w>": 422,
    "có</w>": 423,
    "mạ": 424,
    "quy": 425,
    "quyết</w>": 426,
    "ài</w>": 427,
    "hợ": 428,
    "hợp</w>": 429,
    "bao</w>": 430,
    "gồ": 431,
    "gồm</w>": 432,
    "anh</w>": 433,
    "ái</w>": 434,
    "cri": 435,
    "phát</w>": 436,
    "triển</w>": 437,
    "b</w>": 438,
    "tin</w>": 439,
    "bả": 440,
    "công</w>": 441,
    "sự</w>": 442,
    "hàm</w>": 443,
    "đại</w>": 444,
    "ận</w>": 445,
    "quả</w>": 446,
    "chất</w>": 447,
    "sống</w>": 448,
    "vật</w>": 449,
    "tế</w>": 450,
    "quá</w>": 451,
    "thể</w>": 452,
    "ating</w>": 453,
    "nghiệ": 454,
    "testing</w>": 455,
    "subse": 456,
    "gen": 457,
    "ding</w>": 458,
    "sup": 459,
    "lab": 460,
    "att": 461,
    "erns</w>": 462,
    "ain": 463,
    "ents</w>": 464,
    "ugh": 465,
    "war": 466,
    "algor": 467,
    "algorith": 468,
    "ci": 469,
    "vect": 470,
    "des": 471,
    "te": 472,
    "used</w>": 473,
    "fun": 474,
    "functi": 475,
    "compu": 476,
    "volu": 477,
    "onal</w>": 478,
    "ff": 479,
    "ecti": 480,
    "ge</w>": 481,
    "gni": 482,
    "cur": 483,
    "tran": 484,
    "trans": 485,
    "transform": 486,
    "enti": 487,
    "process": 488,
    "ap": 489,
    "iz": 490,
    "math": 491,
    "mathem": 492,
    "mathemati": 493,
    "mathematic": 494,
    "stu": 495,
    "stud": 496,
    "conti": 497,
    "continu": 498,
    "continuous</w>": 499,
    "chang": 500,
    "change</w>": 501,
    "conc": 502,
    "inte": 503,
    "integr": 504,
    "men": 505,
    "tal</w>": 506,
    "bran": 507,
    "sp": 508,
    "spac": 509,
    "be": 510,
    "betw": 511,
    "betwee": 512,
    "between</w>": 513,
    "ra": 514,
    "num": 515,
    "numb": 516,
    "lit": 517,
    "analy": 518,
    "time</w>": 519,
    "w</w>": 520,
    "olo": 521,
    "ving</w>": 522,
    "cells</w>": 523,
    "uni": 524,
    "ver": 525,
    "process</w>": 526,
    "tive</w>": 527,
    "mm": 528,
    "mo": 529,
    "cell</w>": 530,
    "mem": 531,
    "ass": 532,
    "vi": 533,
    "trung</w>": 534,
    "việc</w>": 535,
    "ây</w>": 536,
    "khả</w>": 537,
    "mạng</w>": 538,
    "thu": 539,
    "ướ": 540,
    "dẫ": 541,
    "dẫn</w>": 542,
    "àng</w>": 543,
    "cấu</w>": 544,
    "trú": 545,
    "trúc</w>": 546,
    "sá": 547,
    "liên</w>": 548,
    "ồ</w>": 549,
    "lập</w>": 550,
    "đối</w>": 551,
    "tượng</w>": 552,
    "mô": 553,
    "biến</w>": 554,
    "lĩ": 555,
    "lĩnh</w>": 556,
    "vực</w>": 557,
    "kho": 558,
    "ja": 559,
    "crip": 560,
    "cript</w>": 561,
    "ủ</w>": 562,
    "nguy": 563,
    "nguyên</w>": 564,
    "ỏi</w>": 565,
    "phé": 566,
    "phép</w>": 567,
    "qua</w>": 568,
    "uyến</w>": 569,
    "ác</w>": 570,
    "iện</w>": 571,
    "cực</w>": 572,
    "vi</w>": 573,
    "mối</w>": 574,
    "ếp</w>": 575,
    "bào</w>": 576,
    "truy": 577,
    "truyền</w>": 578,
    "đặc</w>": 579,
    "ang</w>": 580,
    "chuy": 581,
    "chuyển</w>": 582,
    "ần</w>": 583,
    "động</w>": 584,
    "thức</w>": 585,
    "ường</w>": 586,
    "educ": 587,
    "val": 588,
    "valu": 589,
    "ative</w>": 590,
    "end</w>": 591,
    "giá": 592,
    "giáo</w>": 593,
    "dục</w>": 594,
    "ầu</w>": 595,
    "đánh</w>": 596,
    "ội</w>": 597,
    "sof": 598,
    "nghiệp</w>": 599,
    "mach": 600,
    "machin": 601,
    "subset</w>": 602,
    "arti": 603,
    "ial</w>": 604,
    "bu": 605,
    "il": 606,
    "ther</w>": 607,
    "uses</w>": 608,
    "multi": 609,
    "multipl": 610,
    "multiple</w>": 611,
    "superv": 612,
    "supervis": 613,
    "supervised</w>": 614,
    "label": 615,
    "labeled</w>": 616,
    "ain</w>": 617,
    "mod": 618,
    "model": 619,
    "models</w>": 620,
    "ds</w>": 621,
    "ains</w>": 622,
    "thro": 623,
    "through": 624,
    "through</w>": 625,
    "ties</w>": 626,
    "algorithms</w>": 627,
    "reg": 628,
    "rando": 629,
    "random</w>": 630,
    "por": 631,
    "vector": 632,
    "vector</w>": 633,
    "gradi": 634,
    "miz": 635,
    "tech": 636,
    "techni": 637,
    "techniqu": 638,
    "technique</w>": 639,
    "min": 640,
    "functions</w>": 641,
    "bac": 642,
    "back": 643,
    "comput": 644,
    "voluti": 645,
    "ly</w>": 646,
    "for</w>": 647,
    "cogni": 648,
    "ex": 649,
    "ential</w>": 650,
    "processing</w>": 651,
    "ure</w>": 652,
    "'</w>": 653,
    "atten": 654,
    "attention</w>": 655,
    "all</w>": 656,
    "nat": 657,
    "natural</w>": 658,
    "lang": 659,
    "langu": 660,
    "languag": 661,
    "sel": 662,
    "study</w>": 663,
    "diff": 664,
    "differ": 665,
    "concerns</w>": 666,
    "curves</w>": 667,
    "ea": 668,
    "mental</w>": 669,
    "thes": 670,
    "two</w>": 671,
    "als</w>": 672,
    "spaces</w>": 673,
    "ices</w>": 674,
    "angul": 675,
    "angular</w>": 676,
    "arra": 677,
    "repres": 678,
    "ations</w>": 679,
    "mathematics</w>": 680,
    "sis</w>": 681,
    "sti": 682,
    "invo": 683,
    "invol": 684,
    "involves</w>": 685,
    "col": 686,
    "analyz": 687,
    "analyzing</w>": 688,
    "pre": 689,
    "cre": 690,
    "te</w>": 691,
    "number</w>": 692,
    "struct": 693,
    "ures</w>": 694,
    "form</w>": 695,
    "sci": 696,
    "ence</w>": 697,
    "xi": 698,
    "how</w>": 699,
    "incre": 700,
    "increas": 701,
    "pu": 702,
    "put</w>": 703,
    "biolo": 704,
    "lif": 705,
    "living</w>": 706,
    "dn": 707,
    "cont": 708,
    "eti": 709,
    "instru": 710,
    "instructi": 711,
    "ght</w>": 712,
    "ener": 713,
    "energy</w>": 714,
    "into</w>": 715,
    "chem": 716,
    "chemic": 717,
    "chemical</w>": 718,
    "ov": 719,
    "over</w>": 720,
    "um": 721,
    "sts</w>": 722,
    "cular</w>": 723,
    "ele": 724,
    "os": 725,
    "mes</w>": 726,
    "cat": 727,
    "ate</w>": 728,
    "reac": 729,
    "out</w>": 730,
    "ty": 731,
    "typ": 732,
    "ha": 733,
    "so": 734,
    "vào</w>": 735,
    "dự": 736,
    "từ": 737,
    "âu</w>": 738,
    "bài</w>": 739,
    "thuật</w>": 740,
    "hướ": 741,
    "hướng</w>": 742,
    "đị": 743,
    "định</w>": 744,
    "ràng</w>": 745,
    "ấn</w>": 746,
    "ề</w>": 747,
    "mảng</w>": 748,
    "đồ</w>": 749,
    "thị</w>": 750,
    "bảng</w>": 751,
    "hàng</w>": 752,
    "mô</w>": 753,
    "trên</w>": 754,
    "py": 755,
    "pyth": 756,
    "python</w>": 757,
    "ôn</w>": 758,
    "phổ": 759,
    "phổ</w>": 760,
    "khoa</w>": 761,
    "javas": 762,
    "javascript</w>": 763,
    "rộng</w>": 764,
    "rã": 765,
    "rãi</w>": 766,
    "we": 767,
    "web</w>": 768,
    "chủ</w>": 769,
    "ở</w>": 770,
    "ưu</w>": 771,
    "nối</w>": 772,
    "bảo</w>": 773,
    "vệ</w>": 774,
    "khỏi</w>": 775,
    "ộc</w>": 776,
    "trái</w>": 777,
    "thay</w>": 778,
    "tụ": 779,
    "tục</w>": 780,
    "đạo</w>": 781,
    "tuyến</w>": 782,
    "không</w>": 783,
    "gian</w>": 784,
    "chữ</w>": 785,
    "bản</w>": 786,
    "lý": 787,
    "lý</w>": 788,
    "thuy": 789,
    "thuyết</w>": 790,
    "ởi</w>": 791,
    "cạ": 792,
    "cạnh</w>": 793,
    "tì": 794,
    "tìm</w>": 795,
    "kiế": 796,
    "kiếm</w>": 797,
    "trị</w>": 798,
    "hoặc</w>": 799,
    "tiể": 800,
    "tiểu</w>": 801,
    "phư": 802,
    "phươ": 803,
    "phương</w>": 804,
    "giữ": 805,
    "giữa</w>": 806,
    "nền</w>": 807,
    "di</w>": 808,
    "lượng</w>": 809,
    "sáng</w>": 810,
    "àn</w>": 811,
    "dinh</w>": 812,
    "dư": 813,
    "dưỡ": 814,
    "dưỡng</w>": 815,
    "kinh</w>": 816,
    "điều</w>": 817,
    "hoạ": 818,
    "hoạt</w>": 819,
    "êu</w>": 820,
    "hấ": 821,
    "hấp</w>": 822,
    "education</w>": 823,
    "ow": 824,
    "pr": 825,
    "et</w>": 826,
    "wor": 827,
    "worl": 828,
    "world</w>": 829,
    "blo": 830,
    "bloo": 831,
    "bloom</w>": 832,
    "'s</w>": 833,
    "x</w>": 834,
    "ber": 835,
    "under": 836,
    "understan": 837,
    "understanding</w>": 838,
    "evalu": 839,
    "dur": 840,
    "during</w>": 841,
    "one</w>": 842,
    "what</w>": 843,
    "can</w>": 844,
    "hel": 845,
    "asses": 846,
    "assess": 847,
    "assessment</w>": 848,
    "prov": 849,
    "provid": 850,
    "unit</w>": 851,
    "tiếp</w>": 852,
    "nhận</w>": 853,
    "kiến</w>": 854,
    "kỹ": 855,
    "kỹ</w>": 856,
    "tư": 857,
    "tư</w>": 858,
    "duy</w>": 859,
    "phả": 860,
    "phản</w>": 861,
    "ắt</w>": 862,
    "cầu</w>": 863,
    "ngườ": 864,
    "người</w>": 865,
    "gia</w>": 866,
    "cấp</w>": 867,
    "minh</w>": 868,
    "ca": 869,
    "cao</w>": 870,
    "theo</w>": 871,
    "cá</w>": 872,
    "nội</w>": 873,
    "ốc</w>": 874,
    "giú": 875,
    "giúp</w>": 876,
    "hiệu</w>": 877,
    "cuối</w>": 878,
    "+</w>": 879,
    "vu": 880,
    "js</w>": 881,
    "ab": 882,
    "ql</w>": 883,
    "clo": 884,
    "clou": 885,
    "cloud</w>": 886,
    "ws</w>": 887,
    "softw": 888,
    "software</w>": 889,
    "meth": 890,
    "method": 891,
    "dep": 892,
    "deplo": 893,
    "deploy": 894,
    "deployment</w>": 895,
    "integration</w>": 896,
    "tâ": 897,
    "tâm</w>": 898,
    "nghệ</w>": 899,
    "tại</w>": 900,
    "đang</w>": 901
  },
  "merges": [
    [
      "n",
      "g"
    ],
    [
      "n",
      "</w>"
    ],
    [
      "s",
      "</w>"
    ],
    [
      "ng",
      "</w>"
    ],
    [
      "t",
      "h"
    ],
    [
      ".",
      "</w>"
    ],
    [
      "t",
      "</w>"
    ],
    [
      "e",
      "</w>"
    ],
    [
      "c",
      "</w>"
    ],
    [
      "t",
      "i"
    ],
    [
      "n",
      "h"
    ],
    [
      "i",
      "</w>"
    ],
    [
      "t",
      "r"
    ],
    [
      ",",
      "</w>"
    ],
    [
      "nh",
      "</w>"
    ],
    [
      "a",
      "</w>"
    ],
    [
      "a",
      "n"
    ],
    [
      "d",
      "</w>"
    ],
    [
      "c",
      "h"
    ],
    [
      "a",
      "r"
    ],
    [
      "a",
      "l"
    ],
    [
      "y",
      "</w>"
    ],
    [
      "e",
      "n"
    ],
    [
      "e",
      "r"
    ],
    [
      "u",
      "</w>"
    ],
    [
      "o",
      "r"
    ],
    [
      "i",
      "n"
    ],
    [
      "à",
      "</w>"
    ],
    [
      "e",
      "s</w>"
    ],
    [
      "o",
      "</w>"
    ],
    [
      "m",
      "</w>"
    ],
    [
      "p",
      "</w>"
    ],
    [
      "r",
      "e"
    ],
    [
      "o",
      "f"
    ],
    [
      "q",
      "u"
    ],
    [
      "i",
      "ng</w>"
    ],
    [
      "of",
      "</w>"
    ],
    [
      "e",
      "l"
    ],
    [
      "o",
      "n</w>"
    ],
    [
      "th",
      "e</w>"
    ],
    [
      "g",
      "i"
    ],
    [
      "p",
      "h"
    ],
    [
      "an",
      "d</w>"
    ],
    [
      "a",
      "ti"
    ],
    [
      "o",
      "n"
    ],
    [
      "v",
      "à</w>"
    ],
    [
      "i",
      "ệ"
    ],
    [
      "e",
      "s"
    ],
    [
      "al",
      "</w>"
    ],
    [
      "a",
      "t"
    ],
    [
      "h",
      "ọ"
    ],
    [
      "họ",
      "c</w>"
    ],
    [
      "c",
      "á"
    ],
    [
      "cá",
      "c</w>"
    ],
    [
      "r",
      "o"
    ],
    [
      "ệ",
      "</w>"
    ],
    [
      "k",
      "h"
    ],
    [
      "c",
      "u"
    ],
    [
      "l",
      "e"
    ],
    [
      "i",
      "s</w>"
    ],
    [
      "en",
      "t</w>"
    ],
    [
      "s",
      "t"
    ],
    [
      "i",
      "th"
    ],
    [
      "e",
      "d</w>"
    ],
    [
      "u",
      "n"
    ],
    [
      "s",
      "i"
    ],
    [
      "a",
      "c"
    ],
    [
      "ch",
      "</w>"
    ],
    [
      "a",
      "n</w>"
    ],
    [
      "l",
      "à</w>"
    ],
    [
      "ng",
      "h"
    ],
    [
      "ê",
      "n</w>"
    ],
    [
      "ô",
      "ng</w>"
    ],
    [
      "u",
      "r"
    ],
    [
      "er",
      "</w>"
    ],
    [
      "l",
      "u"
    ],
    [
      "ế",
      "t</w>"
    ],
    [
      "u",
      "y"
    ],
    [
      "l",
      "i"
    ],
    [
      "e",
      "m"
    ],
    [
      "l",
      "o"
    ],
    [
      "p",
      "ro"
    ],
    [
      "c",
      "on"
    ],
    [
      "â",
      "n</w>"
    ],
    [
      "ì",
      "nh</w>"
    ],
    [
      "t",
      "í"
    ],
    [
      "s",
      "ố"
    ],
    [
      "le",
      "ar"
    ],
    [
      "s",
      "u"
    ],
    [
      "w",
      "ith"
    ],
    [
      "a",
      "s"
    ],
    [
      "ậ",
      "p</w>"
    ],
    [
      "ố",
      "i</w>"
    ],
    [
      "lear",
      "n"
    ],
    [
      "th",
      "a"
    ],
    [
      "n",
      "e"
    ],
    [
      "t",
      "w"
    ],
    [
      "c",
      "o"
    ],
    [
      "d",
      "e"
    ],
    [
      "with",
      "</w>"
    ],
    [
      "f",
      "or"
    ],
    [
      "in",
      "c"
    ],
    [
      "d",
      "i"
    ],
    [
      "ati",
      "on</w>"
    ],
    [
      "tr",
      "o"
    ],
    [
      "c",
      "ủ"
    ],
    [
      "củ",
      "a</w>"
    ],
    [
      "h",
      "ệ</w>"
    ],
    [
      "ữ",
      "</w>"
    ],
    [
      "ơ",
      "</w>"
    ],
    [
      "ư",
      "ợ"
    ],
    [
      "ế",
      "n</w>"
    ],
    [
      "á",
      "</w>"
    ],
    [
      "learn",
      "ing</w>"
    ],
    [
      "t",
      "s</w>"
    ],
    [
      "c",
      "ti"
    ],
    [
      "ar",
      "e</w>"
    ],
    [
      "v",
      "e</w>"
    ],
    [
      "l",
      "</w>"
    ],
    [
      "o",
      "u"
    ],
    [
      "th",
      "e"
    ],
    [
      "tr",
      "u"
    ],
    [
      "m",
      "ent</w>"
    ],
    [
      "t",
      "o"
    ],
    [
      "ả",
      "</w>"
    ],
    [
      "iệ",
      "u</w>"
    ],
    [
      "d",
      "ụ"
    ],
    [
      "ể",
      "</w>"
    ],
    [
      "số",
      "</w>"
    ],
    [
      "m",
      "a"
    ],
    [
      "i",
      "c"
    ],
    [
      "in",
      "t"
    ],
    [
      "u",
      "l"
    ],
    [
      "i",
      "s"
    ],
    [
      "i",
      "n</w>"
    ],
    [
      "m",
      "s</w>"
    ],
    [
      "ar",
      "</w>"
    ],
    [
      "re",
      "s"
    ],
    [
      "c",
      "el"
    ],
    [
      "h",
      "o"
    ],
    [
      "nh",
      "ân</w>"
    ],
    [
      "t",
      "ạ"
    ],
    [
      "v",
      "iệ"
    ],
    [
      "ă",
      "ng</w>"
    ],
    [
      "i",
      "ề"
    ],
    [
      "iề",
      "u</w>"
    ],
    [
      "gi",
      "ả"
    ],
    [
      "tr",
      "ình</w>"
    ],
    [
      "tro",
      "ng</w>"
    ],
    [
      "ể",
      "n</w>"
    ],
    [
      "c",
      "ơ</w>"
    ],
    [
      "ó",
      "a</w>"
    ],
    [
      "d",
      "at"
    ],
    [
      "u",
      "s"
    ],
    [
      "ur",
      "al</w>"
    ],
    [
      "k",
      "s</w>"
    ],
    [
      "l",
      "a"
    ],
    [
      "a",
      "g"
    ],
    [
      "co",
      "m"
    ],
    [
      "c",
      "t"
    ],
    [
      "g",
      "r"
    ],
    [
      "c",
      "es"
    ],
    [
      "d",
      "u"
    ],
    [
      "b",
      "i"
    ],
    [
      "or",
      "y</w>"
    ],
    [
      "ti",
      "ng</w>"
    ],
    [
      "m",
      "á"
    ],
    [
      "í",
      "</w>"
    ],
    [
      "t",
      "u"
    ],
    [
      "t",
      "ập</w>"
    ],
    [
      "n",
      "ăng</w>"
    ],
    [
      "giả",
      "i</w>"
    ],
    [
      "ậ",
      "t</w>"
    ],
    [
      "k",
      "ết</w>"
    ],
    [
      "ự",
      "c</w>"
    ],
    [
      "th",
      "ông</w>"
    ],
    [
      "tí",
      "ch</w>"
    ],
    [
      "i",
      "ên</w>"
    ],
    [
      "đ",
      "ạ"
    ],
    [
      "ấ",
      "t</w>"
    ],
    [
      "v",
      "ớ"
    ],
    [
      "vớ",
      "i</w>"
    ],
    [
      "h",
      "óa</w>"
    ],
    [
      "k",
      "i"
    ],
    [
      "tha",
      "t</w>"
    ],
    [
      "dat",
      "a</w>"
    ],
    [
      "o",
      "d"
    ],
    [
      "g",
      "h"
    ],
    [
      "inc",
      "lu"
    ],
    [
      "inclu",
      "d"
    ],
    [
      "o",
      "p"
    ],
    [
      "m",
      "i"
    ],
    [
      "n",
      "i"
    ],
    [
      "on",
      "s</w>"
    ],
    [
      "c",
      "al"
    ],
    [
      "ti",
      "on</w>"
    ],
    [
      "pro",
      "ces"
    ],
    [
      "m",
      "e"
    ],
    [
      "an",
      "is"
    ],
    [
      "anis",
      "ms</w>"
    ],
    [
      "n",
      "u"
    ],
    [
      "b",
      "a"
    ],
    [
      "or",
      "g"
    ],
    [
      "v",
      "el"
    ],
    [
      "má",
      "y</w>"
    ],
    [
      "tr",
      "í</w>"
    ],
    [
      "d",
      "ữ</w>"
    ],
    [
      "l",
      "iệu</w>"
    ],
    [
      "dụ",
      "ng</w>"
    ],
    [
      "nh",
      "iều</w>"
    ],
    [
      "á",
      "n</w>"
    ],
    [
      "ả",
      "ng</w>"
    ],
    [
      "ị",
      "</w>"
    ],
    [
      "h",
      "à"
    ],
    [
      "tí",
      "nh</w>"
    ],
    [
      "ngh",
      "iên</w>"
    ],
    [
      "c",
      "ứ"
    ],
    [
      "cứ",
      "u</w>"
    ],
    [
      "à",
      "nh</w>"
    ],
    [
      "c",
      "e</w>"
    ],
    [
      "s",
      "y"
    ],
    [
      "or",
      "ks</w>"
    ],
    [
      "p",
      "l"
    ],
    [
      "er",
      "v"
    ],
    [
      "t",
      "o</w>"
    ],
    [
      "l",
      "in"
    ],
    [
      "r",
      "an"
    ],
    [
      "d",
      "o"
    ],
    [
      "r",
      "i"
    ],
    [
      "com",
      "p"
    ],
    [
      "cal",
      "cu"
    ],
    [
      "calcu",
      "lu"
    ],
    [
      "calculu",
      "s</w>"
    ],
    [
      "v",
      "o"
    ],
    [
      "ou",
      "s</w>"
    ],
    [
      "a",
      "ng"
    ],
    [
      "v",
      "es</w>"
    ],
    [
      "un",
      "d"
    ],
    [
      "the",
      "ory</w>"
    ],
    [
      "s",
      "tru"
    ],
    [
      "org",
      "anisms</w>"
    ],
    [
      "de",
      "vel"
    ],
    [
      "devel",
      "op"
    ],
    [
      "develop",
      "ment</w>"
    ],
    [
      "i",
      "d"
    ],
    [
      "á",
      "nh</w>"
    ],
    [
      "tu",
      "ệ</w>"
    ],
    [
      "tạ",
      "o</w>"
    ],
    [
      "à",
      "o</w>"
    ],
    [
      "th",
      "ố"
    ],
    [
      "thố",
      "ng</w>"
    ],
    [
      "ó",
      "</w>"
    ],
    [
      "s",
      "ử"
    ],
    [
      "sử",
      "</w>"
    ],
    [
      "đ",
      "ể</w>"
    ],
    [
      "to",
      "án</w>"
    ],
    [
      "ứ",
      "c</w>"
    ],
    [
      "đ",
      "ượ"
    ],
    [
      "đượ",
      "c</w>"
    ],
    [
      "c",
      "ấ"
    ],
    [
      "ượ",
      "ng</w>"
    ],
    [
      "h",
      "ình</w>"
    ],
    [
      "ộ",
      "ng</w>"
    ],
    [
      "ph",
      "á"
    ],
    [
      "i",
      "ển</w>"
    ],
    [
      "qu",
      "an</w>"
    ],
    [
      "ự",
      "</w>"
    ],
    [
      "đ",
      "ổ"
    ],
    [
      "đổ",
      "i</w>"
    ],
    [
      "ph",
      "ân</w>"
    ],
    [
      "gi",
      "á</w>"
    ],
    [
      "ặ",
      "c</w>"
    ],
    [
      "ề",
      "n</w>"
    ],
    [
      "si",
      "nh</w>"
    ],
    [
      "ế",
      "</w>"
    ],
    [
      "th",
      "ành</w>"
    ],
    [
      "ư",
      "ờ"
    ],
    [
      "t",
      "es"
    ],
    [
      "việ",
      "t</w>"
    ],
    [
      "n",
      "a"
    ],
    [
      "na",
      "m</w>"
    ],
    [
      "su",
      "b"
    ],
    [
      "s",
      "e"
    ],
    [
      "f",
      "o"
    ],
    [
      "sy",
      "st"
    ],
    [
      "syst",
      "em"
    ],
    [
      "system",
      "s</w>"
    ],
    [
      "ne",
      "ural</w>"
    ],
    [
      "ne",
      "tw"
    ],
    [
      "netw",
      "orks</w>"
    ],
    [
      "m",
      "ul"
    ],
    [
      "er",
      "s</w>"
    ],
    [
      "w",
      "h"
    ],
    [
      "er",
      "n"
    ],
    [
      "al",
      "g"
    ],
    [
      "includ",
      "e</w>"
    ],
    [
      "lin",
      "e"
    ],
    [
      "line",
      "ar</w>"
    ],
    [
      "si",
      "on</w>"
    ],
    [
      "e",
      "ct"
    ],
    [
      "gr",
      "a"
    ],
    [
      "cu",
      "l"
    ],
    [
      "for",
      "m"
    ],
    [
      "a",
      "t</w>"
    ],
    [
      "ch",
      "i"
    ],
    [
      "du",
      "c"
    ],
    [
      "-",
      "</w>"
    ],
    [
      "st",
      "an"
    ],
    [
      "at",
      "es</w>"
    ],
    [
      "p",
      "i"
    ],
    [
      "e",
      "e"
    ],
    [
      "p",
      "res"
    ],
    [
      "al",
      "y"
    ],
    [
      "m",
      "e</w>"
    ],
    [
      "g",
      "y</w>"
    ],
    [
      "l",
      "s</w>"
    ],
    [
      "b",
      "y</w>"
    ],
    [
      "v",
      "as"
    ],
    [
      "m",
      "ộ"
    ],
    [
      "mộ",
      "t</w>"
    ],
    [
      "c",
      "ó</w>"
    ],
    [
      "m",
      "ạ"
    ],
    [
      "qu",
      "y"
    ],
    [
      "quy",
      "ết</w>"
    ],
    [
      "à",
      "i</w>"
    ],
    [
      "h",
      "ợ"
    ],
    [
      "hợ",
      "p</w>"
    ],
    [
      "ba",
      "o</w>"
    ],
    [
      "g",
      "ồ"
    ],
    [
      "gồ",
      "m</w>"
    ],
    [
      "a",
      "nh</w>"
    ],
    [
      "á",
      "i</w>"
    ],
    [
      "c",
      "ri"
    ],
    [
      "phá",
      "t</w>"
    ],
    [
      "tr",
      "iển</w>"
    ],
    [
      "b",
      "</w>"
    ],
    [
      "ti",
      "n</w>"
    ],
    [
      "b",
      "ả"
    ],
    [
      "c",
      "ông</w>"
    ],
    [
      "s",
      "ự</w>"
    ],
    [
      "hà",
      "m</w>"
    ],
    [
      "đạ",
      "i</w>"
    ],
    [
      "ậ",
      "n</w>"
    ],
    [
      "qu",
      "ả</w>"
    ],
    [
      "ch",
      "ất</w>"
    ],
    [
      "số",
      "ng</w>"
    ],
    [
      "v",
      "ật</w>"
    ],
    [
      "t",
      "ế</w>"
    ],
    [
      "qu",
      "á</w>"
    ],
    [
      "th",
      "ể</w>"
    ],
    [
      "ati",
      "ng</w>"
    ],
    [
      "ngh",
      "iệ"
    ],
    [
      "tes",
      "ting</w>"
    ],
    [
      "sub",
      "se"
    ],
    [
      "g",
      "en"
    ],
    [
      "d",
      "ing</w>"
    ],
    [
      "su",
      "p"
    ],
    [
      "la",
      "b"
    ],
    [
      "at",
      "t"
    ],
    [
      "ern",
      "s</w>"
    ],
    [
      "a",
      "in"
    ],
    [
      "en",
      "ts</w>"
    ],
    [
      "u",
      "gh"
    ],
    [
      "w",
      "ar"
    ],
    [
      "alg",
      "or"
    ],
    [
      "algor",
      "ith"
    ],
    [
      "c",
      "i"
    ],
    [
      "v",
      "ect"
    ],
    [
      "d",
      "es"
    ],
    [
      "t",
      "e"
    ],
    [
      "us",
      "ed</w>"
    ],
    [
      "f",
      "un"
    ],
    [
      "fun",
      "cti"
    ],
    [
      "comp",
      "u"
    ],
    [
      "vo",
      "lu"
    ],
    [
      "on",
      "al</w>"
    ],
    [
      "f",
      "f"
    ],
    [
      "e",
      "cti"
    ],
    [
      "g",
      "e</w>"
    ],
    [
      "g",
      "ni"
    ],
    [
      "cu",
      "r"
    ],
    [
      "tr",
      "an"
    ],
    [
      "tran",
      "s"
    ],
    [
      "trans",
      "form"
    ],
    [
      "en",
      "ti"
    ],
    [
      "proces",
      "s"
    ],
    [
      "a",
      "p"
    ],
    [
      "i",
      "z"
    ],
    [
      "ma",
      "th"
    ],
    [
      "math",
      "em"
    ],
    [
      "mathem",
      "ati"
    ],
    [
      "mathemati",
      "c"
    ],
    [
      "st",
      "u"
    ],
    [
      "stu",
      "d"
    ],
    [
      "con",
      "ti"
    ],
    [
      "conti",
      "nu"
    ],
    [
      "continu",
      "ous</w>"
    ],
    [
      "ch",
      "ang"
    ],
    [
      "chang",
      "e</w>"
    ],
    [
      "con",
      "c"
    ],
    [
      "int",
      "e"
    ],
    [
      "inte",
      "gr"
    ],
    [
      "m",
      "en"
    ],
    [
      "t",
      "al</w>"
    ],
    [
      "b",
      "ran"
    ],
    [
      "s",
      "p"
    ],
    [
      "sp",
      "ac"
    ],
    [
      "b",
      "e"
    ],
    [
      "be",
      "tw"
    ],
    [
      "betw",
      "ee"
    ],
    [
      "betwee",
      "n</w>"
    ],
    [
      "r",
      "a"
    ],
    [
      "nu",
      "m"
    ],
    [
      "num",
      "b"
    ],
    [
      "li",
      "t"
    ],
    [
      "an",
      "aly"
    ],
    [
      "ti",
      "me</w>"
    ],
    [
      "w",
      "</w>"
    ],
    [
      "o",
      "lo"
    ],
    [
      "v",
      "ing</w>"
    ],
    [
      "cel",
      "ls</w>"
    ],
    [
      "un",
      "i"
    ],
    [
      "v",
      "er"
    ],
    [
      "proces",
      "s</w>"
    ],
    [
      "ti",
      "ve</w>"
    ],
    [
      "m",
      "m"
    ],
    [
      "m",
      "o"
    ],
    [
      "cel",
      "l</w>"
    ],
    [
      "m",
      "em"
    ],
    [
      "as",
      "s"
    ],
    [
      "v",
      "i"
    ],
    [
      "tru",
      "ng</w>"
    ],
    [
      "việ",
      "c</w>"
    ],
    [
      "â",
      "y</w>"
    ],
    [
      "kh",
      "ả</w>"
    ],
    [
      "mạ",
      "ng</w>"
    ],
    [
      "th",
      "u"
    ],
    [
      "ư",
      "ớ"
    ],
    [
      "d",
      "ẫ"
    ],
    [
      "dẫ",
      "n</w>"
    ],
    [
      "à",
      "ng</w>"
    ],
    [
      "cấ",
      "u</w>"
    ],
    [
      "tr",
      "ú"
    ],
    [
      "trú",
      "c</w>"
    ],
    [
      "s",
      "á"
    ],
    [
      "li",
      "ên</w>"
    ],
    [
      "ồ",
      "</w>"
    ],
    [
      "l",
      "ập</w>"
    ],
    [
      "đ",
      "ối</w>"
    ],
    [
      "t",
      "ượng</w>"
    ],
    [
      "m",
      "ô"
    ],
    [
      "bi",
      "ến</w>"
    ],
    [
      "l",
      "ĩ"
    ],
    [
      "lĩ",
      "nh</w>"
    ],
    [
      "v",
      "ực</w>"
    ],
    [
      "kh",
      "o"
    ],
    [
      "j",
      "a"
    ],
    [
      "cri",
      "p"
    ],
    [
      "crip",
      "t</w>"
    ],
    [
      "ủ",
      "</w>"
    ],
    [
      "ng",
      "uy"
    ],
    [
      "nguy",
      "ên</w>"
    ],
    [
      "ỏ",
      "i</w>"
    ],
    [
      "ph",
      "é"
    ],
    [
      "phé",
      "p</w>"
    ],
    [
      "qu",
      "a</w>"
    ],
    [
      "uy",
      "ến</w>"
    ],
    [
      "á",
      "c</w>"
    ],
    [
      "iệ",
      "n</w>"
    ],
    [
      "c",
      "ực</w>"
    ],
    [
      "v",
      "i</w>"
    ],
    [
      "m",
      "ối</w>"
    ],
    [
      "ế",
      "p</w>"
    ],
    [
      "b",
      "ào</w>"
    ],
    [
      "tr",
      "uy"
    ],
    [
      "truy",
      "ền</w>"
    ],
    [
      "đ",
      "ặc</w>"
    ],
    [
      "a",
      "ng</w>"
    ],
    [
      "ch",
      "uy"
    ],
    [
      "chuy",
      "ển</w>"
    ],
    [
      "ầ",
      "n</w>"
    ],
    [
      "đ",
      "ộng</w>"
    ],
    [
      "th",
      "ức</w>"
    ],
    [
      "ườ",
      "ng</w>"
    ],
    [
      "e",
      "duc"
    ],
    [
      "v",
      "al"
    ],
    [
      "val",
      "u"
    ],
    [
      "ati",
      "ve</w>"
    ],
    [
      "en",
      "d</w>"
    ],
    [
      "gi",
      "á"
    ],
    [
      "giá",
      "o</w>"
    ],
    [
      "dụ",
      "c</w>"
    ],
    [
      "ầ",
      "u</w>"
    ],
    [
      "đ",
      "ánh</w>"
    ],
    [
      "ộ",
      "i</w>"
    ],
    [
      "s",
      "of"
    ],
    [
      "nghiệ",
      "p</w>"
    ],
    [
      "ma",
      "ch"
    ],
    [
      "mach",
      "in"
    ],
    [
      "subse",
      "t</w>"
    ],
    [
      "ar",
      "ti"
    ],
    [
      "i",
      "al</w>"
    ],
    [
      "b",
      "u"
    ],
    [
      "i",
      "l"
    ],
    [
      "th",
      "er</w>"
    ],
    [
      "us",
      "es</w>"
    ],
    [
      "mul",
      "ti"
    ],
    [
      "multi",
      "pl"
    ],
    [
      "multipl",
      "e</w>"
    ],
    [
      "sup",
      "erv"
    ],
    [
      "superv",
      "is"
    ],
    [
      "supervis",
      "ed</w>"
    ],
    [
      "lab",
      "el"
    ],
    [
      "label",
      "ed</w>"
    ],
    [
      "a",
      "in</w>"
    ],
    [
      "m",
      "od"
    ],
    [
      "mod",
      "el"
    ],
    [
      "model",
      "s</w>"
    ],
    [
      "d",
      "s</w>"
    ],
    [
      "ain",
      "s</w>"
    ],
    [
      "th",
      "ro"
    ],
    [
      "thro",
      "ugh"
    ],
    [
      "through",
      "</w>"
    ],
    [
      "ti",
      "es</w>"
    ],
    [
      "algorith",
      "ms</w>"
    ],
    [
      "re",
      "g"
    ],
    [
      "ran",
      "do"
    ],
    [
      "rando",
      "m</w>"
    ],
    [
      "p",
      "or"
    ],
    [
      "vect",
      "or"
    ],
    [
      "vector",
      "</w>"
    ],
    [
      "gra",
      "di"
    ],
    [
      "mi",
      "z"
    ],
    [
      "te",
      "ch"
    ],
    [
      "tech",
      "ni"
    ],
    [
      "techni",
      "qu"
    ],
    [
      "techniqu",
      "e</w>"
    ],
    [
      "m",
      "in"
    ],
    [
      "functi",
      "ons</w>"
    ],
    [
      "b",
      "ac"
    ],
    [
      "bac",
      "k"
    ],
    [
      "compu",
      "t"
    ],
    [
      "volu",
      "ti"
    ],
    [
      "l",
      "y</w>"
    ],
    [
      "for",
      "</w>"
    ],
    [
      "co",
      "gni"
    ],
    [
      "e",
      "x"
    ],
    [
      "enti",
      "al</w>"
    ],
    [
      "process",
      "ing</w>"
    ],
    [
      "ur",
      "e</w>"
    ],
    [
      "'",
      "</w>"
    ],
    [
      "att",
      "en"
    ],
    [
      "atten",
      "tion</w>"
    ],
    [
      "al",
      "l</w>"
    ],
    [
      "n",
      "at"
    ],
    [
      "nat",
      "ural</w>"
    ],
    [
      "la",
      "ng"
    ],
    [
      "lang",
      "u"
    ],
    [
      "langu",
      "ag"
    ],
    [
      "s",
      "el"
    ],
    [
      "stud",
      "y</w>"
    ],
    [
      "di",
      "ff"
    ],
    [
      "diff",
      "er"
    ],
    [
      "conc",
      "erns</w>"
    ],
    [
      "cur",
      "ves</w>"
    ],
    [
      "e",
      "a"
    ],
    [
      "men",
      "tal</w>"
    ],
    [
      "th",
      "es"
    ],
    [
      "tw",
      "o</w>"
    ],
    [
      "al",
      "s</w>"
    ],
    [
      "spac",
      "es</w>"
    ],
    [
      "ic",
      "es</w>"
    ],
    [
      "ang",
      "ul"
    ],
    [
      "angul",
      "ar</w>"
    ],
    [
      "ar",
      "ra"
    ],
    [
      "re",
      "pres"
    ],
    [
      "ati",
      "ons</w>"
    ],
    [
      "mathematic",
      "s</w>"
    ],
    [
      "s",
      "is</w>"
    ],
    [
      "s",
      "ti"
    ],
    [
      "in",
      "vo"
    ],
    [
      "invo",
      "l"
    ],
    [
      "invol",
      "ves</w>"
    ],
    [
      "co",
      "l"
    ],
    [
      "analy",
      "z"
    ],
    [
      "analyz",
      "ing</w>"
    ],
    [
      "p",
      "re"
    ],
    [
      "c",
      "re"
    ],
    [
      "t",
      "e</w>"
    ],
    [
      "numb",
      "er</w>"
    ],
    [
      "stru",
      "ct"
    ],
    [
      "ur",
      "es</w>"
    ],
    [
      "for",
      "m</w>"
    ],
    [
      "s",
      "ci"
    ],
    [
      "en",
      "ce</w>"
    ],
    [
      "x",
      "i"
    ],
    [
      "ho",
      "w</w>"
    ],
    [
      "inc",
      "re"
    ],
    [
      "incre",
      "as"
    ],
    [
      "p",
      "u"
    ],
    [
      "pu",
      "t</w>"
    ],
    [
      "bi",
      "olo"
    ],
    [
      "li",
      "f"
    ],
    [
      "li",
      "ving</w>"
    ],
    [
      "d",
      "n"
    ],
    [
      "con",
      "t"
    ],
    [
      "e",
      "ti"
    ],
    [
      "in",
      "stru"
    ],
    [
      "instru",
      "cti"
    ],
    [
      "gh",
      "t</w>"
    ],
    [
      "en",
      "er"
    ],
    [
      "ener",
      "gy</w>"
    ],
    [
      "int",
      "o</w>"
    ],
    [
      "ch",
      "em"
    ],
    [
      "chem",
      "ic"
    ],
    [
      "chemic",
      "al</w>"
    ],
    [
      "o",
      "v"
    ],
    [
      "ov",
      "er</w>"
    ],
    [
      "u",
      "m"
    ],
    [
      "st",
      "s</w>"
    ],
    [
      "cul",
      "ar</w>"
    ],
    [
      "el",
      "e"
    ],
    [
      "o",
      "s"
    ],
    [
      "m",
      "es</w>"
    ],
    [
      "c",
      "at"
    ],
    [
      "at",
      "e</w>"
    ],
    [
      "re",
      "ac"
    ],
    [
      "ou",
      "t</w>"
    ],
    [
      "t",
      "y"
    ],
    [
      "ty",
      "p"
    ],
    [
      "h",
      "a"
    ],
    [
      "s",
      "o"
    ],
    [
      "v",
      "ào</w>"
    ],
    [
      "d",
      "ự"
    ],
    [
      "t",
      "ừ"
    ],
    [
      "â",
      "u</w>"
    ],
    [
      "b",
      "ài</w>"
    ],
    [
      "thu",
      "ật</w>"
    ],
    [
      "h",
      "ướ"
    ],
    [
      "hướ",
      "ng</w>"
    ],
    [
      "đ",
      "ị"
    ],
    [
      "đị",
      "nh</w>"
    ],
    [
      "r",
      "àng</w>"
    ],
    [
      "ấ",
      "n</w>"
    ],
    [
      "ề",
      "</w>"
    ],
    [
      "m",
      "ảng</w>"
    ],
    [
      "đ",
      "ồ</w>"
    ],
    [
      "th",
      "ị</w>"
    ],
    [
      "b",
      "ảng</w>"
    ],
    [
      "hà",
      "ng</w>"
    ],
    [
      "mô",
      "</w>"
    ],
    [
      "tr",
      "ên</w>"
    ],
    [
      "p",
      "y"
    ],
    [
      "py",
      "th"
    ],
    [
      "pyth",
      "on</w>"
    ],
    [
      "ô",
      "n</w>"
    ],
    [
      "ph",
      "ổ"
    ],
    [
      "phổ",
      "</w>"
    ],
    [
      "kho",
      "a</w>"
    ],
    [
      "ja",
      "vas"
    ],
    [
      "javas",
      "cript</w>"
    ],
    [
      "r",
      "ộng</w>"
    ],
    [
      "r",
      "ã"
    ],
    [
      "rã",
      "i</w>"
    ],
    [
      "w",
      "e"
    ],
    [
      "we",
      "b</w>"
    ],
    [
      "ch",
      "ủ</w>"
    ],
    [
      "ở",
      "</w>"
    ],
    [
      "ư",
      "u</w>"
    ],
    [
      "n",
      "ối</w>"
    ],
    [
      "bả",
      "o</w>"
    ],
    [
      "v",
      "ệ</w>"
    ],
    [
      "kh",
      "ỏi</w>"
    ],
    [
      "ộ",
      "c</w>"
    ],
    [
      "tr",
      "ái</w>"
    ],
    [
      "tha",
      "y</w>"
    ],
    [
      "t",
      "ụ"
    ],
    [
      "tụ",
      "c</w>"
    ],
    [
      "đạ",
      "o</w>"
    ],
    [
      "t",
      "uyến</w>"
    ],
    [
      "kh",
      "ông</w>"
    ],
    [
      "gi",
      "an</w>"
    ],
    [
      "ch",
      "ữ</w>"
    ],
    [
      "bả",
      "n</w>"
    ],
    [
      "l",
      "ý"
    ],
    [
      "lý",
      "</w>"
    ],
    [
      "th",
      "uy"
    ],
    [
      "thuy",
      "ết</w>"
    ],
    [
      "ở",
      "i</w>"
    ],
    [
      "c",
      "ạ"
    ],
    [
      "cạ",
      "nh</w>"
    ],
    [
      "t",
      "ì"
    ],
    [
      "tì",
      "m</w>"
    ],
    [
      "ki",
      "ế"
    ],
    [
      "kiế",
      "m</w>"
    ],
    [
      "tr",
      "ị</w>"
    ],
    [
      "ho",
      "ặc</w>"
    ],
    [
      "ti",
      "ể"
    ],
    [
      "tiể",
      "u</w>"
    ],
    [
      "ph",
      "ư"
    ],
    [
      "phư",
      "ơ"
    ],
    [
      "phươ",
      "ng</w>"
    ],
    [
      "gi",
      "ữ"
    ],
    [
      "giữ",
      "a</w>"
    ],
    [
      "n",
      "ền</w>"
    ],
    [
      "d",
      "i</w>"
    ],
    [
      "l",
      "ượng</w>"
    ],
    [
      "sá",
      "ng</w>"
    ],
    [
      "à",
      "n</w>"
    ],
    [
      "di",
      "nh</w>"
    ],
    [
      "d",
      "ư"
    ],
    [
      "dư",
      "ỡ"
    ],
    [
      "dưỡ",
      "ng</w>"
    ],
    [
      "ki",
      "nh</w>"
    ],
    [
      "đ",
      "iều</w>"
    ],
    [
      "ho",
      "ạ"
    ],
    [
      "hoạ",
      "t</w>"
    ],
    [
      "ê",
      "u</w>"
    ],
    [
      "h",
      "ấ"
    ],
    [
      "hấ",
      "p</w>"
    ],
    [
      "educ",
      "ation</w>"
    ],
    [
      "o",
      "w"
    ],
    [
      "p",
      "r"
    ],
    [
      "e",
      "t</w>"
    ],
    [
      "w",
      "or"
    ],
    [
      "wor",
      "l"
    ],
    [
      "worl",
      "d</w>"
    ],
    [
      "b",
      "lo"
    ],
    [
      "blo",
      "o"
    ],
    [
      "bloo",
      "m</w>"
    ],
    [
      "'",
      "s</w>"
    ],
    [
      "x",
      "</w>"
    ],
    [
      "b",
      "er"
    ],
    [
      "und",
      "er"
    ],
    [
      "under",
      "stan"
    ],
    [
      "understan",
      "ding</w>"
    ],
    [
      "e",
      "valu"
    ],
    [
      "d",
      "ur"
    ],
    [
      "dur",
      "ing</w>"
    ],
    [
      "on",
      "e</w>"
    ],
    [
      "wh",
      "at</w>"
    ],
    [
      "c",
      "an</w>"
    ],
    [
      "h",
      "el"
    ],
    [
      "ass",
      "es"
    ],
    [
      "asses",
      "s"
    ],
    [
      "assess",
      "ment</w>"
    ],
    [
      "pro",
      "v"
    ],
    [
      "prov",
      "id"
    ],
    [
      "uni",
      "t</w>"
    ],
    [
      "ti",
      "ếp</w>"
    ],
    [
      "nh",
      "ận</w>"
    ],
    [
      "ki",
      "ến</w>"
    ],
    [
      "k",
      "ỹ"
    ],
    [
      "kỹ",
      "</w>"
    ],
    [
      "t",
      "ư"
    ],
    [
      "tư",
      "</w>"
    ],
    [
      "du",
      "y</w>"
    ],
    [
      "ph",
      "ả"
    ],
    [
      "phả",
      "n</w>"
    ],
    [
      "ắ",
      "t</w>"
    ],
    [
      "c",
      "ầu</w>"
    ],
    [
      "ng",
      "ườ"
    ],
    [
      "ngườ",
      "i</w>"
    ],
    [
      "gi",
      "a</w>"
    ],
    [
      "cấ",
      "p</w>"
    ],
    [
      "mi",
      "nh</w>"
    ],
    [
      "c",
      "a"
    ],
    [
      "ca",
      "o</w>"
    ],
    [
      "the",
      "o</w>"
    ],
    [
      "cá",
      "</w>"
    ],
    [
      "n",
      "ội</w>"
    ],
    [
      "ố",
      "c</w>"
    ],
    [
      "gi",
      "ú"
    ],
    [
      "giú",
      "p</w>"
    ],
    [
      "h",
      "iệu</w>"
    ],
    [
      "cu",
      "ối</w>"
    ],
    [
      "+",
      "</w>"
    ],
    [
      "v",
      "u"
    ],
    [
      "j",
      "s</w>"
    ],
    [
      "a",
      "b"
    ],
    [
      "q",
      "l</w>"
    ],
    [
      "c",
      "lo"
    ],
    [
      "clo",
      "u"
    ],
    [
      "clou",
      "d</w>"
    ],
    [
      "w",
      "s</w>"
    ],
    [
      "sof",
      "tw"
    ],
    [
      "softw",
      "are</w>"
    ],
    [
      "me",
      "th"
    ],
    [
      "meth",
      "od"
    ],
    [
      "de",
      "p"
    ],
    [
      "dep",
      "lo"
    ],
    [
      "deplo",
      "y"
    ],
    [
      "deploy",
      "ment</w>"
    ],
    [
      "integr",
      "ation</w>"
    ],
    [
      "t",
      "â"
    ],
    [
      "tâ",
      "m</w>"
    ],
    [
      "ngh",
      "ệ</w>"
    ],
    [
      "tạ",
      "i</w>"
    ],
    [
      "đ",
      "ang</w>"
    ]
  ]
}